
// This is a TensorFlow Lite model file that has been converted into a C data
// array using the tensorflow.lite.util.convert_bytes_to_c_source() function.
// This form is useful for compiling into a binary for devices that don't have a
// file system.


// We need to keep the data array aligned on some architectures.
#ifdef __has_attribute
#define HAVE_ATTRIBUTE(x) __has_attribute(x)
#else
#define HAVE_ATTRIBUTE(x) 0
#endif
#if HAVE_ATTRIBUTE(aligned) || (defined(__GNUC__) && !defined(__clang__))
#define DATA_ALIGN_ATTRIBUTE __attribute__((aligned(4)))
#else
#define DATA_ALIGN_ATTRIBUTE
#endif

const unsigned char sine_model[] DATA_ALIGN_ATTRIBUTE = {
    0x1c, 0x00, 0x00, 0x00, 0x54, 0x46, 0x4c, 0x33, 0x14, 0x00, 0x20, 0x00, 0x1c,
    0x00, 0x18, 0x00, 0x14, 0x00, 0x10, 0x00, 0x0c, 0x00, 0x00, 0x00, 0x08, 0x00,
    0x04, 0x00, 0x14, 0x00, 0x00, 0x00, 0x1c, 0x00, 0x00, 0x00, 0x90, 0x00, 0x00,
    0x00, 0xe8, 0x00, 0x00, 0x00, 0x04, 0x07, 0x00, 0x00, 0x14, 0x07, 0x00, 0x00,
    0x0c, 0x0c, 0x00, 0x00, 0x03, 0x00, 0x00, 0x00, 0x01, 0x00, 0x00, 0x00, 0x10,
    0x00, 0x00, 0x00, 0x00, 0x00, 0x0a, 0x00, 0x10, 0x00, 0x0c, 0x00, 0x08, 0x00,
    0x04, 0x00, 0x0a, 0x00, 0x00, 0x00, 0x0c, 0x00, 0x00, 0x00, 0x1c, 0x00, 0x00,
    0x00, 0x38, 0x00, 0x00, 0x00, 0x0f, 0x00, 0x00, 0x00, 0x73, 0x65, 0x72, 0x76,
    0x69, 0x6e, 0x67, 0x5f, 0x64, 0x65, 0x66, 0x61, 0x75, 0x6c, 0x74, 0x00, 0x01,
    0x00, 0x00, 0x00, 0x04, 0x00, 0x00, 0x00, 0x98, 0xff, 0xff, 0xff, 0x09, 0x00,
    0x00, 0x00, 0x04, 0x00, 0x00, 0x00, 0x07, 0x00, 0x00, 0x00, 0x64, 0x65, 0x6e,
    0x73, 0x65, 0x5f, 0x32, 0x00, 0x01, 0x00, 0x00, 0x00, 0x04, 0x00, 0x00, 0x00,
    0xc6, 0xf9, 0xff, 0xff, 0x04, 0x00, 0x00, 0x00, 0x0b, 0x00, 0x00, 0x00, 0x64,
    0x65, 0x6e, 0x73, 0x65, 0x5f, 0x69, 0x6e, 0x70, 0x75, 0x74, 0x00, 0x02, 0x00,
    0x00, 0x00, 0x34, 0x00, 0x00, 0x00, 0x04, 0x00, 0x00, 0x00, 0xdc, 0xff, 0xff,
    0xff, 0x0c, 0x00, 0x00, 0x00, 0x04, 0x00, 0x00, 0x00, 0x13, 0x00, 0x00, 0x00,
    0x43, 0x4f, 0x4e, 0x56, 0x45, 0x52, 0x53, 0x49, 0x4f, 0x4e, 0x5f, 0x4d, 0x45,
    0x54, 0x41, 0x44, 0x41, 0x54, 0x41, 0x00, 0x08, 0x00, 0x0c, 0x00, 0x08, 0x00,
    0x04, 0x00, 0x08, 0x00, 0x00, 0x00, 0x0b, 0x00, 0x00, 0x00, 0x04, 0x00, 0x00,
    0x00, 0x13, 0x00, 0x00, 0x00, 0x6d, 0x69, 0x6e, 0x5f, 0x72, 0x75, 0x6e, 0x74,
    0x69, 0x6d, 0x65, 0x5f, 0x76, 0x65, 0x72, 0x73, 0x69, 0x6f, 0x6e, 0x00, 0x0d,
    0x00, 0x00, 0x00, 0x18, 0x06, 0x00, 0x00, 0x10, 0x06, 0x00, 0x00, 0xc0, 0x05,
    0x00, 0x00, 0xa4, 0x05, 0x00, 0x00, 0x54, 0x05, 0x00, 0x00, 0x04, 0x05, 0x00,
    0x00, 0xf4, 0x00, 0x00, 0x00, 0xa4, 0x00, 0x00, 0x00, 0x9c, 0x00, 0x00, 0x00,
    0x94, 0x00, 0x00, 0x00, 0x8c, 0x00, 0x00, 0x00, 0x6c, 0x00, 0x00, 0x00, 0x04,
    0x00, 0x00, 0x00, 0x72, 0xfa, 0xff, 0xff, 0x04, 0x00, 0x00, 0x00, 0x58, 0x00,
    0x00, 0x00, 0x0c, 0x00, 0x00, 0x00, 0x08, 0x00, 0x0e, 0x00, 0x08, 0x00, 0x04,
    0x00, 0x08, 0x00, 0x00, 0x00, 0x10, 0x00, 0x00, 0x00, 0x28, 0x00, 0x00, 0x00,
    0x00, 0x00, 0x06, 0x00, 0x08, 0x00, 0x04, 0x00, 0x06, 0x00, 0x00, 0x00, 0x04,
    0x00, 0x00, 0x00, 0x01, 0x00, 0x00, 0x00, 0xea, 0x03, 0x00, 0x00, 0x00, 0x00,
    0x0a, 0x00, 0x10, 0x00, 0x0c, 0x00, 0x08, 0x00, 0x04, 0x00, 0x0a, 0x00, 0x00,
    0x00, 0x02, 0x00, 0x00, 0x00, 0x02, 0x00, 0x00, 0x00, 0x04, 0x00, 0x00, 0x00,
    0x06, 0x00, 0x00, 0x00, 0x32, 0x2e, 0x31, 0x35, 0x2e, 0x30, 0x00, 0x00, 0xd6,
    0xfa, 0xff, 0xff, 0x04, 0x00, 0x00, 0x00, 0x10, 0x00, 0x00, 0x00, 0x31, 0x2e,
    0x35, 0x2e, 0x30, 0x00, 0x00, 0x00, 0x00, 0x00, 0x00, 0x00, 0x00, 0x00, 0x00,
    0x00, 0xc0, 0xf5, 0xff, 0xff, 0xc4, 0xf5, 0xff, 0xff, 0xc8, 0xf5, 0xff, 0xff,
    0xfe, 0xfa, 0xff, 0xff, 0x04, 0x00, 0x00, 0x00, 0x40, 0x00, 0x00, 0x00, 0x59,
    0x13, 0x1d, 0xbf, 0xa6, 0xb9, 0x89, 0x3e, 0x57, 0xca, 0xf1, 0x3f, 0x4a, 0x79,
    0xda, 0xbe, 0x21, 0xde, 0x34, 0xbf, 0x6a, 0x80, 0x0a, 0x3f, 0xc3, 0x98, 0xae,
    0xbf, 0x70, 0x5d, 0xc9, 0xbe, 0x96, 0xbb, 0x8a, 0xbf, 0x71, 0xa9, 0x4a, 0x3e,
    0x7b, 0xff, 0xfc, 0x3e, 0x22, 0xb2, 0xb8, 0xbe, 0x94, 0x42, 0x7f, 0x3e, 0x55,
    0x21, 0xc3, 0x3e, 0xe2, 0xb5, 0xc0, 0xbe, 0x2e, 0x54, 0x05, 0xbe, 0x4a, 0xfb,
    0xff, 0xff, 0x04, 0x00, 0x00, 0x00, 0x00, 0x04, 0x00, 0x00, 0xb2, 0x0e, 0x78,
    0x3e, 0x06, 0x47, 0x15, 0x3e, 0x6a, 0xcd, 0x08, 0xbe, 0x2f, 0xd1, 0xd2, 0xbe,
    0x60, 0xff, 0x73, 0x3d, 0x51, 0x15, 0xb3, 0x3e, 0xf0, 0xd9, 0xd8, 0xbc, 0x9c,
    0x9d, 0xd8, 0xbe, 0x70, 0xd9, 0x2b, 0xbd, 0xa6, 0x83, 0x86, 0xbe, 0x10, 0x30,
    0x44, 0xbd, 0x60, 0x92, 0x70, 0xbf, 0x7a, 0x51, 0x0b, 0x3f, 0xcf, 0x14, 0xce,
    0x3e, 0x04, 0xc6, 0x72, 0xbe, 0x2e, 0xae, 0x19, 0xbe, 0x11, 0xe3, 0x85, 0x3e,
    0x01, 0x2e, 0xd6, 0xbe, 0xf7, 0x27, 0x80, 0xbe, 0x24, 0xc1, 0xce, 0x3d, 0x2f,
    0xce, 0xa9, 0x3e, 0x08, 0xdc, 0x1a, 0x3d, 0x8c, 0x65, 0x29, 0xbe, 0x9f, 0x3f,
    0xb2, 0x3e, 0x04, 0xd4, 0x02, 0xbe, 0x82, 0xfb, 0x32, 0xbe, 0x30, 0x36, 0xd9,
    0xbc, 0x90, 0x0b, 0xdb, 0xbe, 0x8e, 0x45, 0xa1, 0xbe, 0x99, 0x76, 0xce, 0xbe,
    0x3e, 0x03, 0x21, 0x3e, 0x71, 0xb8, 0x92, 0x3e, 0x8a, 0x77, 0x33, 0x3e, 0xe0,
    0x0d, 0x28, 0xbd, 0x94, 0x8f, 0xec, 0x3d, 0x54, 0xf9, 0x2c, 0xbf, 0x90, 0x2c,
    0x94, 0xbc, 0x37, 0x54, 0xbc, 0x3e, 0x16, 0xee, 0xd1, 0xbe, 0x5f, 0x08, 0xa8,
    0x3e, 0x96, 0x73, 0x7b, 0xbf, 0xaa, 0xbc, 0xdb, 0xbe, 0x8e, 0x9f, 0x5f, 0xbe,
    0x2e, 0xc6, 0xeb, 0x3d, 0xf9, 0xb0, 0x3a, 0x3f, 0xce, 0xa5, 0x6a, 0xbd, 0x13,
    0x39, 0x3d, 0xbe, 0xa0, 0x1e, 0xa8, 0x3c, 0x01, 0xcc, 0xd4, 0x3e, 0x87, 0x57,
    0x80, 0xbe, 0x3b, 0xd4, 0xcf, 0x3e, 0x7f, 0xe8, 0x68, 0xbe, 0x62, 0xf3, 0x37,
    0x3e, 0x5c, 0x5b, 0xfe, 0x3d, 0x58, 0x74, 0x71, 0x3d, 0xad, 0xb4, 0xa6, 0xbe,
    0x06, 0x1e, 0x90, 0xbe, 0x32, 0x3d, 0x85, 0xbe, 0x91, 0x83, 0x91, 0x3e, 0x99,
    0xd3, 0xe8, 0xbd, 0x97, 0x2b, 0x20, 0x3f, 0x91, 0x9b, 0xcd, 0x3e, 0x25, 0xfa,
    0x84, 0x3e, 0x63, 0x60, 0x5c, 0xbe, 0xc5, 0xe0, 0x8d, 0x3e, 0x88, 0xc3, 0x51,
    0x3d, 0x03, 0x78, 0x86, 0x3e, 0xa8, 0xa5, 0x1e, 0x3e, 0xe0, 0x44, 0x93, 0xbc,
    0x6e, 0x04, 0xc1, 0xbe, 0xbf, 0x2e, 0xac, 0x3e, 0x96, 0x4d, 0x37, 0x3e, 0x5d,
    0xea, 0xa0, 0x3b, 0x40, 0x68, 0x2f, 0xbc, 0x66, 0x17, 0x2e, 0xbe, 0xd5, 0xa2,
    0x63, 0xbf, 0x9b, 0xf8, 0xe2, 0x3e, 0x24, 0xe7, 0xeb, 0x3e, 0x02, 0x19, 0x8f,
    0xbe, 0x1d, 0xe1, 0xa4, 0x3e, 0x3e, 0x9b, 0x98, 0xbe, 0x38, 0x20, 0x1a, 0xbd,
    0x74, 0xfc, 0x8d, 0xbe, 0x63, 0xdb, 0xa2, 0x3e, 0x85, 0x81, 0xb7, 0xbe, 0x66,
    0x0f, 0x12, 0x3e, 0xe1, 0x78, 0xbd, 0xbe, 0x21, 0x5b, 0xad, 0x3e, 0xaf, 0xa1,
    0xb6, 0x3e, 0x7f, 0x3f, 0x92, 0xbe, 0x34, 0xcd, 0xfb, 0x3d, 0xca, 0x7c, 0x5d,
    0x3f, 0xa0, 0x7a, 0x80, 0x3d, 0xea, 0x86, 0xb8, 0x3e, 0xd5, 0x97, 0x92, 0x3e,
    0xe5, 0x06, 0xce, 0x3e, 0x4e, 0xa7, 0x02, 0xbe, 0xc3, 0xd9, 0xad, 0xbe, 0xcc,
    0xbd, 0xba, 0xbd, 0xea, 0xf5, 0xe2, 0xbe, 0x08, 0xe4, 0xc1, 0xbd, 0x15, 0xb6,
    0xbd, 0x3e, 0x20, 0x81, 0xf6, 0xbc, 0xfc, 0xeb, 0x8a, 0xbd, 0xc8, 0x75, 0xea,
    0xbd, 0x8c, 0x36, 0xad, 0x3d, 0xb0, 0x52, 0xe0, 0xbd, 0xce, 0xdc, 0x9b, 0xbd,
    0x36, 0xa3, 0x65, 0x3e, 0x11, 0x61, 0xaa, 0xbf, 0x66, 0x1b, 0xb7, 0xbe, 0xca,
    0x90, 0x0c, 0x3e, 0x28, 0x53, 0xa7, 0xbe, 0x92, 0xf9, 0x0a, 0xbe, 0x7e, 0x38,
    0x91, 0xbe, 0x95, 0xca, 0x9f, 0xbe, 0x50, 0xe9, 0xff, 0x3c, 0x3e, 0x7a, 0x17,
    0x3e, 0xf1, 0x18, 0xc6, 0x3e, 0x6a, 0x89, 0x53, 0x3e, 0x3c, 0x99, 0x8f, 0xbe,
    0x89, 0x7c, 0x94, 0x3e, 0xb4, 0x93, 0x99, 0x3d, 0x32, 0x1e, 0xa6, 0xbe, 0xcc,
    0x6d, 0x8f, 0x3e, 0x7d, 0x8a, 0xe4, 0x3e, 0x39, 0x23, 0xca, 0x3e, 0x6b, 0x88,
    0xce, 0xbe, 0x72, 0xaa, 0x4d, 0xbe, 0xe2, 0x23, 0x2a, 0x3e, 0x00, 0x81, 0xf0,
    0x3c, 0x62, 0x08, 0x37, 0xbf, 0x79, 0x34, 0xba, 0x3e, 0x93, 0x7e, 0xd7, 0x3e,
    0x73, 0x60, 0xd6, 0x3e, 0xbb, 0x04, 0xcb, 0x3e, 0xdc, 0x24, 0xd0, 0x3d, 0xb7,
    0x5a, 0xb5, 0xbe, 0x44, 0xf7, 0xc2, 0xbd, 0xa3, 0xf4, 0xbd, 0xbe, 0xc8, 0xd3,
    0x94, 0x3e, 0xbb, 0x31, 0x68, 0xbf, 0x8c, 0x81, 0xe8, 0xbd, 0x65, 0x32, 0xbb,
    0xbe, 0x17, 0x1d, 0xa5, 0xbe, 0xac, 0x0b, 0x53, 0xbe, 0x50, 0x89, 0x90, 0xbe,
    0x66, 0x94, 0xba, 0x3e, 0x90, 0xc3, 0x1f, 0xbd, 0x06, 0x19, 0x1b, 0x3e, 0xda,
    0x47, 0x34, 0x3e, 0xe6, 0x4f, 0xd1, 0xbe, 0x68, 0x61, 0x48, 0xbe, 0xf0, 0xf4,
    0x95, 0x3c, 0xd9, 0xf6, 0x67, 0xbe, 0x05, 0x7c, 0xaa, 0x3c, 0x4e, 0x45, 0xb8,
    0xbe, 0x41, 0x9d, 0x99, 0xbd, 0xc7, 0xd3, 0xdb, 0x3e, 0x9e, 0x92, 0x45, 0xbe,
    0x78, 0x14, 0xed, 0xbd, 0xce, 0x7f, 0x76, 0x3e, 0x9f, 0xf8, 0xb3, 0x3e, 0x4a,
    0xbc, 0x07, 0xbd, 0x2d, 0xcd, 0x66, 0xbe, 0xe6, 0x26, 0x4c, 0x3e, 0x17, 0x9e,
    0x4f, 0xbe, 0xc0, 0x63, 0x41, 0xbe, 0xa4, 0x06, 0xa3, 0x3e, 0x9b, 0x8c, 0xca,
    0xbe, 0x7a, 0x07, 0x39, 0xbe, 0xd1, 0xc7, 0x1f, 0x3f, 0xa9, 0x78, 0x48, 0xbd,
    0xeb, 0x25, 0x8f, 0x3e, 0x93, 0xe0, 0xd5, 0xbe, 0xa0, 0xdd, 0x4c, 0x3c, 0x05,
    0xc1, 0x67, 0xbe, 0xea, 0x0d, 0x3a, 0x3e, 0x70, 0xad, 0xb8, 0xbc, 0xdb, 0x2d,
    0xb5, 0x3e, 0x94, 0xba, 0x9f, 0x3d, 0x64, 0xf0, 0xb0, 0xbe, 0xd4, 0xc7, 0x27,
    0xbe, 0x09, 0xb2, 0x89, 0x3e, 0x99, 0xc5, 0x63, 0xbe, 0x6a, 0xcc, 0x39, 0x3e,
    0xee, 0xd4, 0x54, 0x3e, 0x0a, 0xa9, 0x2f, 0x3e, 0xfb, 0x3b, 0xbc, 0xbe, 0x23,
    0x59, 0x55, 0xbe, 0x9e, 0x76, 0x4b, 0x3e, 0x31, 0x59, 0x8f, 0x3e, 0x73, 0xa8,
    0x88, 0x3e, 0x56, 0xe9, 0x1c, 0x3e, 0x67, 0xaf, 0xc3, 0x3e, 0xd4, 0x97, 0xbc,
    0xbd, 0x40, 0xb6, 0x39, 0xbe, 0xb8, 0xd8, 0xd4, 0xbe, 0x36, 0xf5, 0x24, 0xbe,
    0x70, 0x45, 0x8d, 0xbe, 0xf4, 0xb2, 0xb0, 0x3d, 0x1e, 0xef, 0x72, 0x3e, 0x44,
    0x41, 0xb6, 0xbe, 0x9a, 0x81, 0xc7, 0xbe, 0xe1, 0x4b, 0x5b, 0xbe, 0x60, 0x77,
    0x6e, 0xbe, 0x83, 0x9a, 0xb7, 0x3e, 0xc3, 0xb9, 0xc8, 0x3e, 0x84, 0x07, 0xca,
    0xbd, 0xdf, 0x69, 0xbd, 0x3e, 0xe2, 0xa5, 0xca, 0xbe, 0xbe, 0x27, 0xbb, 0x3e,
    0xe8, 0x2b, 0xf3, 0xbd, 0xdf, 0x34, 0x8c, 0x3e, 0x84, 0xfc, 0xf6, 0xbd, 0xb7,
    0x2d, 0xc0, 0x3e, 0x32, 0x28, 0x0f, 0x3e, 0x06, 0x5f, 0xa4, 0xbe, 0x6e, 0xf0,
    0x1f, 0x3e, 0x54, 0x0d, 0xe9, 0x3d, 0x7a, 0x71, 0xf6, 0x3c, 0x5b, 0x58, 0x5c,
    0x3e, 0xcc, 0x63, 0xcf, 0xbd, 0xee, 0xb4, 0x2e, 0x3e, 0x97, 0x33, 0xd1, 0x3e,
    0x8b, 0x20, 0xca, 0xbe, 0x46, 0x34, 0x6d, 0x3e, 0xac, 0x9f, 0x84, 0xbe, 0x63,
    0x51, 0x80, 0x3e, 0xc6, 0xe8, 0x97, 0xbe, 0x00, 0x64, 0x84, 0xbe, 0xfc, 0x0e,
    0xb5, 0xbd, 0xe1, 0x83, 0x3d, 0xbe, 0x10, 0x88, 0xc3, 0x3c, 0x9d, 0x92, 0xc9,
    0x3e, 0x70, 0xc5, 0xa7, 0x3c, 0x5e, 0x8e, 0xfe, 0x3c, 0xf8, 0xed, 0x82, 0xbd,
    0xd6, 0x86, 0x12, 0x3e, 0x28, 0x2c, 0x8d, 0xbd, 0xf5, 0xd7, 0x6f, 0xbe, 0xbe,
    0xe0, 0xa5, 0xbe, 0xec, 0x7d, 0xb4, 0x3d, 0xb8, 0xcc, 0x99, 0x3a, 0x4f, 0xd0,
    0xb6, 0xbe, 0xa0, 0x16, 0x86, 0xbc, 0x04, 0xd9, 0xfa, 0x3d, 0x0e, 0xeb, 0x55,
    0x3e, 0xe4, 0xaf, 0x28, 0xbe, 0x75, 0x57, 0x94, 0x3e, 0x80, 0x0e, 0xb3, 0x3c,
    0xc6, 0x12, 0xd5, 0xbe, 0x11, 0xeb, 0x68, 0xbd, 0x14, 0xb6, 0x52, 0x3d, 0xf9,
    0x23, 0xd8, 0xbe, 0xef, 0x1c, 0xb1, 0x3e, 0x56, 0xff, 0xff, 0xff, 0x04, 0x00,
    0x00, 0x00, 0x40, 0x00, 0x00, 0x00, 0xa0, 0x72, 0x77, 0xbe, 0xce, 0x91, 0x9a,
    0xbe, 0x2b, 0xa4, 0x07, 0xbf, 0x23, 0xc4, 0xb9, 0x3e, 0x74, 0xb8, 0x97, 0xbe,
    0x86, 0xa3, 0x4d, 0xbe, 0x42, 0x3e, 0x2c, 0xbe, 0xa2, 0x52, 0x94, 0xbe, 0x15,
    0xb9, 0xbc, 0x3e, 0x4e, 0xe9, 0x44, 0xbe, 0x00, 0x03, 0x1f, 0xbc, 0x25, 0x4e,
    0x58, 0x3e, 0x58, 0xb6, 0x50, 0x3c, 0x86, 0xf9, 0xc9, 0x3e, 0x40, 0x49, 0xdc,
    0xbc, 0xc4, 0x00, 0x5b, 0xbe, 0xa2, 0xff, 0xff, 0xff, 0x04, 0x00, 0x00, 0x00,
    0x40, 0x00, 0x00, 0x00, 0x00, 0x00, 0x00, 0x00, 0x00, 0x00, 0x00, 0x00, 0x00,
    0x00, 0x00, 0x00, 0xf1, 0x07, 0x5b, 0xbf, 0x00, 0x00, 0x00, 0x00, 0x00, 0x00,
    0x00, 0x00, 0x00, 0x00, 0x00, 0x00, 0x00, 0x00, 0x00, 0x00, 0x05, 0x25, 0x47,
    0xbf, 0x00, 0x00, 0x00, 0x00, 0x00, 0x00, 0x00, 0x00, 0xe7, 0x01, 0x57, 0xbf,
    0xd0, 0x16, 0xa1, 0x3f, 0x84, 0xd3, 0xf1, 0x3d, 0x00, 0x00, 0x00, 0x00, 0x00,
    0x00, 0x00, 0x00, 0xee, 0xff, 0xff, 0xff, 0x04, 0x00, 0x00, 0x00, 0x04, 0x00,
    0x00, 0x00, 0x21, 0xdd, 0xdb, 0xbd, 0x00, 0x00, 0x06, 0x00, 0x08, 0x00, 0x04,
    0x00, 0x06, 0x00, 0x00, 0x00, 0x04, 0x00, 0x00, 0x00, 0x40, 0x00, 0x00, 0x00,
    0x65, 0xf5, 0x00, 0x3e, 0x00, 0x00, 0x00, 0x00, 0x4f, 0x25, 0x41, 0x3f, 0xc6,
    0xd7, 0x60, 0x3d, 0x24, 0xc8, 0xa0, 0x3d, 0x4e, 0x81, 0x00, 0xbe, 0x56, 0x25,
    0xe1, 0x3e, 0x8c, 0xa5, 0xb8, 0x3d, 0x23, 0xd8, 0x9d, 0x3e, 0x4f, 0x57, 0x52,
    0xbc, 0x52, 0x51, 0xc5, 0xbd, 0x00, 0x00, 0x00, 0x00, 0x00, 0x00, 0x00, 0x00,
    0xc3, 0xeb, 0x89, 0xbd, 0x8f, 0x32, 0x63, 0xbd, 0x46, 0xa6, 0xea, 0xbb, 0x20,
    0xfb, 0xff, 0xff, 0x24, 0xfb, 0xff, 0xff, 0x0f, 0x00, 0x00, 0x00, 0x4d, 0x4c,
    0x49, 0x52, 0x20, 0x43, 0x6f, 0x6e, 0x76, 0x65, 0x72, 0x74, 0x65, 0x64, 0x2e,
    0x00, 0x01, 0x00, 0x00, 0x00, 0x14, 0x00, 0x00, 0x00, 0x00, 0x00, 0x0e, 0x00,
    0x18, 0x00, 0x14, 0x00, 0x10, 0x00, 0x0c, 0x00, 0x08, 0x00, 0x04, 0x00, 0x0e,
    0x00, 0x00, 0x00, 0x14, 0x00, 0x00, 0x00, 0x1c, 0x00, 0x00, 0x00, 0xd8, 0x00,
    0x00, 0x00, 0xdc, 0x00, 0x00, 0x00, 0xe0, 0x00, 0x00, 0x00, 0x04, 0x00, 0x00,
    0x00, 0x6d, 0x61, 0x69, 0x6e, 0x00, 0x00, 0x00, 0x00, 0x03, 0x00, 0x00, 0x00,
    0x80, 0x00, 0x00, 0x00, 0x38, 0x00, 0x00, 0x00, 0x04, 0x00, 0x00, 0x00, 0x9a,
    0xff, 0xff, 0xff, 0x10, 0x00, 0x00, 0x00, 0x00, 0x00, 0x00, 0x08, 0x0c, 0x00,
    0x00, 0x00, 0x10, 0x00, 0x00, 0x00, 0x9c, 0xfb, 0xff, 0xff, 0x01, 0x00, 0x00,
    0x00, 0x09, 0x00, 0x00, 0x00, 0x03, 0x00, 0x00, 0x00, 0x08, 0x00, 0x00, 0x00,
    0x06, 0x00, 0x00, 0x00, 0x02, 0x00, 0x00, 0x00, 0xca, 0xff, 0xff, 0xff, 0x10,
    0x00, 0x00, 0x00, 0x00, 0x00, 0x00, 0x08, 0x10, 0x00, 0x00, 0x00, 0x14, 0x00,
    0x00, 0x00, 0xba, 0xff, 0xff, 0xff, 0x00, 0x00, 0x00, 0x01, 0x01, 0x00, 0x00,
    0x00, 0x08, 0x00, 0x00, 0x00, 0x03, 0x00, 0x00, 0x00, 0x07, 0x00, 0x00, 0x00,
    0x05, 0x00, 0x00, 0x00, 0x01, 0x00, 0x00, 0x00, 0x00, 0x00, 0x0e, 0x00, 0x16,
    0x00, 0x00, 0x00, 0x10, 0x00, 0x0c, 0x00, 0x0b, 0x00, 0x04, 0x00, 0x0e, 0x00,
    0x00, 0x00, 0x18, 0x00, 0x00, 0x00, 0x00, 0x00, 0x00, 0x08, 0x18, 0x00, 0x00,
    0x00, 0x1c, 0x00, 0x00, 0x00, 0x00, 0x00, 0x06, 0x00, 0x08, 0x00, 0x07, 0x00,
    0x06, 0x00, 0x00, 0x00, 0x00, 0x00, 0x00, 0x01, 0x01, 0x00, 0x00, 0x00, 0x07,
    0x00, 0x00, 0x00, 0x03, 0x00, 0x00, 0x00, 0x00, 0x00, 0x00, 0x00, 0x04, 0x00,
    0x00, 0x00, 0x03, 0x00, 0x00, 0x00, 0x01, 0x00, 0x00, 0x00, 0x09, 0x00, 0x00,
    0x00, 0x01, 0x00, 0x00, 0x00, 0x00, 0x00, 0x00, 0x00, 0x0a, 0x00, 0x00, 0x00,
    0x8c, 0x03, 0x00, 0x00, 0x1c, 0x03, 0x00, 0x00, 0xac, 0x02, 0x00, 0x00, 0x58,
    0x02, 0x00, 0x00, 0x10, 0x02, 0x00, 0x00, 0xc4, 0x01, 0x00, 0x00, 0x78, 0x01,
    0x00, 0x00, 0xf0, 0x00, 0x00, 0x00, 0x60, 0x00, 0x00, 0x00, 0x04, 0x00, 0x00,
    0x00, 0xb2, 0xfc, 0xff, 0xff, 0x00, 0x00, 0x00, 0x01, 0x14, 0x00, 0x00, 0x00,
    0x1c, 0x00, 0x00, 0x00, 0x1c, 0x00, 0x00, 0x00, 0x0a, 0x00, 0x00, 0x00, 0x34,
    0x00, 0x00, 0x00, 0x02, 0x00, 0x00, 0x00, 0xff, 0xff, 0xff, 0xff, 0x01, 0x00,
    0x00, 0x00, 0x9c, 0xfc, 0xff, 0xff, 0x19, 0x00, 0x00, 0x00, 0x53, 0x74, 0x61,
    0x74, 0x65, 0x66, 0x75, 0x6c, 0x50, 0x61, 0x72, 0x74, 0x69, 0x74, 0x69, 0x6f,
    0x6e, 0x65, 0x64, 0x43, 0x61, 0x6c, 0x6c, 0x3a, 0x30, 0x00, 0x00, 0x00, 0x02,
    0x00, 0x00, 0x00, 0x01, 0x00, 0x00, 0x00, 0x01, 0x00, 0x00, 0x00, 0x0a, 0xfd,
    0xff, 0xff, 0x00, 0x00, 0x00, 0x01, 0x14, 0x00, 0x00, 0x00, 0x1c, 0x00, 0x00,
    0x00, 0x1c, 0x00, 0x00, 0x00, 0x09, 0x00, 0x00, 0x00, 0x68, 0x00, 0x00, 0x00,
    0x02, 0x00, 0x00, 0x00, 0xff, 0xff, 0xff, 0xff, 0x10, 0x00, 0x00, 0x00, 0xf4,
    0xfc, 0xff, 0xff, 0x4c, 0x00, 0x00, 0x00, 0x73, 0x65, 0x71, 0x75, 0x65, 0x6e,
    0x74, 0x69, 0x61, 0x6c, 0x2f, 0x64, 0x65, 0x6e, 0x73, 0x65, 0x5f, 0x31, 0x2f,
    0x4d, 0x61, 0x74, 0x4d, 0x75, 0x6c, 0x3b, 0x73, 0x65, 0x71, 0x75, 0x65, 0x6e,
    0x74, 0x69, 0x61, 0x6c, 0x2f, 0x64, 0x65, 0x6e, 0x73, 0x65, 0x5f, 0x31, 0x2f,
    0x52, 0x65, 0x6c, 0x75, 0x3b, 0x73, 0x65, 0x71, 0x75, 0x65, 0x6e, 0x74, 0x69,
    0x61, 0x6c, 0x2f, 0x64, 0x65, 0x6e, 0x73, 0x65, 0x5f, 0x31, 0x2f, 0x42, 0x69,
    0x61, 0x73, 0x41, 0x64, 0x64, 0x00, 0x00, 0x00, 0x00, 0x02, 0x00, 0x00, 0x00,
    0x01, 0x00, 0x00, 0x00, 0x10, 0x00, 0x00, 0x00, 0x96, 0xfd, 0xff, 0xff, 0x00,
    0x00, 0x00, 0x01, 0x14, 0x00, 0x00, 0x00, 0x1c, 0x00, 0x00, 0x00, 0x1c, 0x00,
    0x00, 0x00, 0x08, 0x00, 0x00, 0x00, 0x60, 0x00, 0x00, 0x00, 0x02, 0x00, 0x00,
    0x00, 0xff, 0xff, 0xff, 0xff, 0x10, 0x00, 0x00, 0x00, 0x80, 0xfd, 0xff, 0xff,
    0x46, 0x00, 0x00, 0x00, 0x73, 0x65, 0x71, 0x75, 0x65, 0x6e, 0x74, 0x69, 0x61,
    0x6c, 0x2f, 0x64, 0x65, 0x6e, 0x73, 0x65, 0x2f, 0x4d, 0x61, 0x74, 0x4d, 0x75,
    0x6c, 0x3b, 0x73, 0x65, 0x71, 0x75, 0x65, 0x6e, 0x74, 0x69, 0x61, 0x6c, 0x2f,
    0x64, 0x65, 0x6e, 0x73, 0x65, 0x2f, 0x52, 0x65, 0x6c, 0x75, 0x3b, 0x73, 0x65,
    0x71, 0x75, 0x65, 0x6e, 0x74, 0x69, 0x61, 0x6c, 0x2f, 0x64, 0x65, 0x6e, 0x73,
    0x65, 0x2f, 0x42, 0x69, 0x61, 0x73, 0x41, 0x64, 0x64, 0x00, 0x00, 0x02, 0x00,
    0x00, 0x00, 0x01, 0x00, 0x00, 0x00, 0x10, 0x00, 0x00, 0x00, 0x86, 0xfe, 0xff,
    0xff, 0x00, 0x00, 0x00, 0x01, 0x10, 0x00, 0x00, 0x00, 0x10, 0x00, 0x00, 0x00,
    0x07, 0x00, 0x00, 0x00, 0x28, 0x00, 0x00, 0x00, 0xf4, 0xfd, 0xff, 0xff, 0x19,
    0x00, 0x00, 0x00, 0x73, 0x65, 0x71, 0x75, 0x65, 0x6e, 0x74, 0x69, 0x61, 0x6c,
    0x2f, 0x64, 0x65, 0x6e, 0x73, 0x65, 0x5f, 0x32, 0x2f, 0x4d, 0x61, 0x74, 0x4d,
    0x75, 0x6c, 0x00, 0x00, 0x00, 0x02, 0x00, 0x00, 0x00, 0x01, 0x00, 0x00, 0x00,
    0x10, 0x00, 0x00, 0x00, 0xce, 0xfe, 0xff, 0xff, 0x00, 0x00, 0x00, 0x01, 0x10,
    0x00, 0x00, 0x00, 0x10, 0x00, 0x00, 0x00, 0x06, 0x00, 0x00, 0x00, 0x28, 0x00,
    0x00, 0x00, 0x3c, 0xfe, 0xff, 0xff, 0x19, 0x00, 0x00, 0x00, 0x73, 0x65, 0x71,
    0x75, 0x65, 0x6e, 0x74, 0x69, 0x61, 0x6c, 0x2f, 0x64, 0x65, 0x6e, 0x73, 0x65,
    0x5f, 0x31, 0x2f, 0x4d, 0x61, 0x74, 0x4d, 0x75, 0x6c, 0x00, 0x00, 0x00, 0x02,
    0x00, 0x00, 0x00, 0x10, 0x00, 0x00, 0x00, 0x10, 0x00, 0x00, 0x00, 0x16, 0xff,
    0xff, 0xff, 0x00, 0x00, 0x00, 0x01, 0x10, 0x00, 0x00, 0x00, 0x10, 0x00, 0x00,
    0x00, 0x05, 0x00, 0x00, 0x00, 0x24, 0x00, 0x00, 0x00, 0x84, 0xfe, 0xff, 0xff,
    0x17, 0x00, 0x00, 0x00, 0x73, 0x65, 0x71, 0x75, 0x65, 0x6e, 0x74, 0x69, 0x61,
    0x6c, 0x2f, 0x64, 0x65, 0x6e, 0x73, 0x65, 0x2f, 0x4d, 0x61, 0x74, 0x4d, 0x75,
    0x6c, 0x00, 0x02, 0x00, 0x00, 0x00, 0x10, 0x00, 0x00, 0x00, 0x01, 0x00, 0x00,
    0x00, 0x5a, 0xff, 0xff, 0xff, 0x00, 0x00, 0x00, 0x01, 0x10, 0x00, 0x00, 0x00,
    0x10, 0x00, 0x00, 0x00, 0x04, 0x00, 0x00, 0x00, 0x34, 0x00, 0x00, 0x00, 0xc8,
    0xfe, 0xff, 0xff, 0x27, 0x00, 0x00, 0x00, 0x73, 0x65, 0x71, 0x75, 0x65, 0x6e,
    0x74, 0x69, 0x61, 0x6c, 0x2f, 0x64, 0x65, 0x6e, 0x73, 0x65, 0x2f, 0x42, 0x69,
    0x61, 0x73, 0x41, 0x64, 0x64, 0x2f, 0x52, 0x65, 0x61, 0x64, 0x56, 0x61, 0x72,
    0x69, 0x61, 0x62, 0x6c, 0x65, 0x4f, 0x70, 0x00, 0x01, 0x00, 0x00, 0x00, 0x10,
    0x00, 0x00, 0x00, 0xaa, 0xff, 0xff, 0xff, 0x00, 0x00, 0x00, 0x01, 0x10, 0x00,
    0x00, 0x00, 0x10, 0x00, 0x00, 0x00, 0x03, 0x00, 0x00, 0x00, 0x38, 0x00, 0x00,
    0x00, 0x18, 0xff, 0xff, 0xff, 0x29, 0x00, 0x00, 0x00, 0x73, 0x65, 0x71, 0x75,
    0x65, 0x6e, 0x74, 0x69, 0x61, 0x6c, 0x2f, 0x64, 0x65, 0x6e, 0x73, 0x65, 0x5f,
    0x32, 0x2f, 0x42, 0x69, 0x61, 0x73, 0x41, 0x64, 0x64, 0x2f, 0x52, 0x65, 0x61,
    0x64, 0x56, 0x61, 0x72, 0x69, 0x61, 0x62, 0x6c, 0x65, 0x4f, 0x70, 0x00, 0x00,
    0x00, 0x01, 0x00, 0x00, 0x00, 0x01, 0x00, 0x00, 0x00, 0x00, 0x00, 0x16, 0x00,
    0x18, 0x00, 0x14, 0x00, 0x00, 0x00, 0x10, 0x00, 0x0c, 0x00, 0x08, 0x00, 0x00,
    0x00, 0x00, 0x00, 0x00, 0x00, 0x07, 0x00, 0x16, 0x00, 0x00, 0x00, 0x00, 0x00,
    0x00, 0x01, 0x10, 0x00, 0x00, 0x00, 0x10, 0x00, 0x00, 0x00, 0x02, 0x00, 0x00,
    0x00, 0x38, 0x00, 0x00, 0x00, 0x84, 0xff, 0xff, 0xff, 0x29, 0x00, 0x00, 0x00,
    0x73, 0x65, 0x71, 0x75, 0x65, 0x6e, 0x74, 0x69, 0x61, 0x6c, 0x2f, 0x64, 0x65,
    0x6e, 0x73, 0x65, 0x5f, 0x31, 0x2f, 0x42, 0x69, 0x61, 0x73, 0x41, 0x64, 0x64,
    0x2f, 0x52, 0x65, 0x61, 0x64, 0x56, 0x61, 0x72, 0x69, 0x61, 0x62, 0x6c, 0x65,
    0x4f, 0x70, 0x00, 0x00, 0x00, 0x01, 0x00, 0x00, 0x00, 0x10, 0x00, 0x00, 0x00,
    0x00, 0x00, 0x16, 0x00, 0x1c, 0x00, 0x18, 0x00, 0x00, 0x00, 0x14, 0x00, 0x10,
    0x00, 0x0c, 0x00, 0x00, 0x00, 0x00, 0x00, 0x08, 0x00, 0x07, 0x00, 0x16, 0x00,
    0x00, 0x00, 0x00, 0x00, 0x00, 0x01, 0x14, 0x00, 0x00, 0x00, 0x20, 0x00, 0x00,
    0x00, 0x20, 0x00, 0x00, 0x00, 0x01, 0x00, 0x00, 0x00, 0x3c, 0x00, 0x00, 0x00,
    0x02, 0x00, 0x00, 0x00, 0xff, 0xff, 0xff, 0xff, 0x01, 0x00, 0x00, 0x00, 0x04,
    0x00, 0x04, 0x00, 0x04, 0x00, 0x00, 0x00, 0x1d, 0x00, 0x00, 0x00, 0x73, 0x65,
    0x72, 0x76, 0x69, 0x6e, 0x67, 0x5f, 0x64, 0x65, 0x66, 0x61, 0x75, 0x6c, 0x74,
    0x5f, 0x64, 0x65, 0x6e, 0x73, 0x65, 0x5f, 0x69, 0x6e, 0x70, 0x75, 0x74, 0x3a,
    0x30, 0x00, 0x00, 0x00, 0x02, 0x00, 0x00, 0x00, 0x01, 0x00, 0x00, 0x00, 0x01,
    0x00, 0x00, 0x00, 0x01, 0x00, 0x00, 0x00, 0x10, 0x00, 0x00, 0x00, 0x0c, 0x00,
    0x0c, 0x00, 0x0b, 0x00, 0x00, 0x00, 0x00, 0x00, 0x04, 0x00, 0x0c, 0x00, 0x00,
    0x00, 0x09, 0x00, 0x00, 0x00, 0x00, 0x00, 0x00, 0x09,
};
const int sine_model_len = 3168;
